custom_quantize_layers: {}
quantize_parameters:
    images:
        qtype: asymmetric_quantized
        qmethod: layer
        dtype: float32
        min:
        -   0.0
        max:
        -   1.0
        scale: []
        zero_point: []
        ori_min:
        -   0.0
        ori_max:
        -   1.0
    /model.0/conv/Conv_output_0:
        qtype: asymmetric_quantized
        qmethod: layer
        dtype: int8
        min:
        -   -17.108367919921875
        max:
        -   18.979061126708984
        scale:
        -   0.14151932959463082
        zero_point:
        -   -7
        ori_min:
        -   -17.108367919921875
        ori_max:
        -   18.979061126708984
    /model.0/act/LeakyRelu_output_0:
        qtype: asymmetric_quantized
        qmethod: layer
        dtype: int8
        min:
        -   -1.7108367681503296
        max:
        -   18.979061126708984
        scale:
        -   0.08113685448964437
        zero_point:
        -   -107
        ori_min:
        -   -1.7108367681503296
        ori_max:
        -   18.979061126708984
    /model.1/conv/Conv_output_0:
        qtype: asymmetric_quantized
        qmethod: layer
        dtype: int8
        min:
        -   -34.0845832824707
        max:
        -   27.260622024536133
        scale:
        -   0.2405694325764974
        zero_point:
        -   14
        ori_min:
        -   -34.0845832824707
        ori_max:
        -   27.260622024536133
    /model.1/act/LeakyRelu_output_0:
        qtype: asymmetric_quantized
        qmethod: layer
        dtype: int8
        min:
        -   -3.4084584712982178
        max:
        -   27.260622024536133
        scale:
        -   0.12027090390523275
        zero_point:
        -   -100
        ori_min:
        -   -3.4084584712982178
        ori_max:
        -   27.260622024536133
    /model.2/conv/Conv_output_0:
        qtype: asymmetric_quantized
        qmethod: layer
        dtype: int8
        min:
        -   -26.1694393157959
        max:
        -   13.932001113891602
        scale:
        -   0.15726055070465686
        zero_point:
        -   38
        ori_min:
        -   -26.1694393157959
        ori_max:
        -   13.932001113891602
    /model.2/act/LeakyRelu_output_0:
        qtype: asymmetric_quantized
        qmethod: layer
        dtype: int8
        min:
        -   -2.6169440746307373
        max:
        -   13.932001113891602
        scale:
        -   0.06489782426871506
        zero_point:
        -   -88
        ori_min:
        -   -2.6169440746307373
        ori_max:
        -   13.932001113891602
    /model.3/conv/Conv_output_0:
        qtype: asymmetric_quantized
        qmethod: layer
        dtype: int8
        min:
        -   -36.50687026977539
        max:
        -   10.99788761138916
        scale:
        -   0.1862931681614296
        zero_point:
        -   68
        ori_min:
        -   -36.50687026977539
        ori_max:
        -   10.99788761138916
    /model.3/act/LeakyRelu_output_0:
        qtype: asymmetric_quantized
        qmethod: layer
        dtype: int8
        min:
        -   -3.6506869792938232
        max:
        -   10.99788761138916
        scale:
        -   0.05744539055169797
        zero_point:
        -   -64
        ori_min:
        -   -3.6506869792938232
        ori_max:
        -   10.99788761138916
    /model.4/conv/Conv_output_0:
        qtype: asymmetric_quantized
        qmethod: layer
        dtype: int8
        min:
        -   -17.763227462768555
        max:
        -   12.731943130493164
        scale:
        -   0.11958890428730086
        zero_point:
        -   21
        ori_min:
        -   -17.763227462768555
        ori_max:
        -   12.731943130493164
    /model.4/act/LeakyRelu_output_0:
        qtype: asymmetric_quantized
        qmethod: layer
        dtype: int8
        min:
        -   -1.7763227224349976
        max:
        -   12.731943130493164
        scale:
        -   0.05689516020756142
        zero_point:
        -   -97
        ori_min:
        -   -1.7763227224349976
        ori_max:
        -   12.731943130493164
    /model.5/conv/Conv_output_0:
        qtype: asymmetric_quantized
        qmethod: layer
        dtype: int8
        min:
        -   -16.074275970458984
        max:
        -   10.72149658203125
        scale:
        -   0.10508146099015778
        zero_point:
        -   25
        ori_min:
        -   -16.074275970458984
        ori_max:
        -   10.72149658203125
    /model.5/act/LeakyRelu_output_0:
        qtype: asymmetric_quantized
        qmethod: layer
        dtype: int8
        min:
        -   -1.6074275970458984
        max:
        -   10.72149658203125
        scale:
        -   0.04834872227089078
        zero_point:
        -   -95
        ori_min:
        -   -1.6074275970458984
        ori_max:
        -   10.72149658203125
    /model.6/Concat_output_0:
        qtype: asymmetric_quantized
        qmethod: layer
        dtype: int8
        min:
        -   -3.6506869792938232
        max:
        -   13.932001113891602
        scale:
        -   0.06895171801249186
        zero_point:
        -   -75
        ori_min:
        -   -3.6506869792938232
        ori_max:
        -   13.932001113891602
    /model.7/conv/Conv_output_0:
        qtype: asymmetric_quantized
        qmethod: layer
        dtype: int8
        min:
        -   -21.65743637084961
        max:
        -   9.642694473266602
        scale:
        -   0.12274561115339691
        zero_point:
        -   48
        ori_min:
        -   -21.65743637084961
        ori_max:
        -   9.642694473266602
    /model.7/act/LeakyRelu_output_0:
        qtype: asymmetric_quantized
        qmethod: layer
        dtype: int8
        min:
        -   -0.9878618121147156
        max:
        -   9.642694473266602
        scale:
        -   0.0416884560211032
        zero_point:
        -   -104
        ori_min:
        -   -2.165743589401245
        ori_max:
        -   9.642694473266602
    /model.8/m/MaxPool_output_0:
        qtype: asymmetric_quantized
        qmethod: layer
        dtype: int8
        min:
        -   -0.9878618121147156
        max:
        -   9.642694473266602
        scale:
        -   0.0416884560211032
        zero_point:
        -   -104
        ori_min:
        -   -0.9878618121147156
        ori_max:
        -   9.642694473266602
    /model.9/conv/Conv_output_0:
        qtype: asymmetric_quantized
        qmethod: layer
        dtype: int8
        min:
        -   -9.816859245300293
        max:
        -   6.543700218200684
        scale:
        -   0.06415905671961167
        zero_point:
        -   25
        ori_min:
        -   -9.816859245300293
        ori_max:
        -   6.543700218200684
    /model.9/act/LeakyRelu_output_0:
        qtype: asymmetric_quantized
        qmethod: layer
        dtype: int8
        min:
        -   -0.9816859364509583
        max:
        -   6.543700218200684
        scale:
        -   0.02951131825353585
        zero_point:
        -   -95
        ori_min:
        -   -0.9816859364509583
        ori_max:
        -   6.543700218200684
    /model.10/conv/Conv_output_0:
        qtype: asymmetric_quantized
        qmethod: layer
        dtype: int8
        min:
        -   -10.68454360961914
        max:
        -   7.261883735656738
        scale:
        -   0.07037814645206227
        zero_point:
        -   24
        ori_min:
        -   -10.68454360961914
        ori_max:
        -   7.261883735656738
    /model.10/act/LeakyRelu_output_0:
        qtype: asymmetric_quantized
        qmethod: layer
        dtype: int8
        min:
        -   -1.068454384803772
        max:
        -   7.261883735656738
        scale:
        -   0.0326679926292569
        zero_point:
        -   -95
        ori_min:
        -   -1.068454384803772
        ori_max:
        -   7.261883735656738
    /model.11/conv/Conv_output_0:
        qtype: asymmetric_quantized
        qmethod: layer
        dtype: int8
        min:
        -   -9.245210647583008
        max:
        -   9.82300090789795
        scale:
        -   0.07477730021757238
        zero_point:
        -   -4
        ori_min:
        -   -9.245210647583008
        ori_max:
        -   9.82300090789795
    /model.11/act/LeakyRelu_output_0:
        qtype: asymmetric_quantized
        qmethod: layer
        dtype: int8
        min:
        -   -0.9245210886001587
        max:
        -   9.82300090789795
        scale:
        -   0.04214714508430631
        zero_point:
        -   -106
        ori_min:
        -   -0.9245210886001587
        ori_max:
        -   9.82300090789795
    /model.12/conv/Conv_output_0:
        qtype: asymmetric_quantized
        qmethod: layer
        dtype: int8
        min:
        -   -12.390913963317871
        max:
        -   12.10345458984375
        scale:
        -   0.09605634726730047
        zero_point:
        -   1
        ori_min:
        -   -12.390913963317871
        ori_max:
        -   12.10345458984375
    /model.12/act/LeakyRelu_output_0:
        qtype: asymmetric_quantized
        qmethod: layer
        dtype: int8
        min:
        -   -1.239091396331787
        max:
        -   12.10345458984375
        scale:
        -   0.052323709749707986
        zero_point:
        -   -104
        ori_min:
        -   -1.239091396331787
        ori_max:
        -   12.10345458984375
    /model.13/Concat_output_0:
        qtype: asymmetric_quantized
        qmethod: layer
        dtype: int8
        min:
        -   -1.239091396331787
        max:
        -   12.10345458984375
        scale:
        -   0.052323709749707986
        zero_point:
        -   -104
        ori_min:
        -   -1.239091396331787
        ori_max:
        -   12.10345458984375
    /model.14/conv/Conv_output_0:
        qtype: asymmetric_quantized
        qmethod: layer
        dtype: int8
        min:
        -   -12.224626541137695
        max:
        -   8.704865455627441
        scale:
        -   0.08207643920300053
        zero_point:
        -   21
        ori_min:
        -   -12.224626541137695
        ori_max:
        -   8.704865455627441
    /model.14/act/LeakyRelu_output_0:
        qtype: asymmetric_quantized
        qmethod: layer
        dtype: int8
        min:
        -   -1.2224626541137695
        max:
        -   8.704865455627441
        scale:
        -   0.03893069846957337
        zero_point:
        -   -97
        ori_min:
        -   -1.2224626541137695
        ori_max:
        -   8.704865455627441
    /model.15/m/MaxPool_output_0:
        qtype: asymmetric_quantized
        qmethod: layer
        dtype: int8
        min:
        -   -1.2224626541137695
        max:
        -   8.704865455627441
        scale:
        -   0.03893069846957337
        zero_point:
        -   -97
        ori_min:
        -   -0.7071834802627563
        ori_max:
        -   8.704865455627441
    /model.16/conv/Conv_output_0:
        qtype: asymmetric_quantized
        qmethod: layer
        dtype: int8
        min:
        -   -7.5857439041137695
        max:
        -   6.805473804473877
        scale:
        -   0.0564361478768143
        zero_point:
        -   6
        ori_min:
        -   -7.5857439041137695
        ori_max:
        -   6.805473804473877
    /model.16/act/LeakyRelu_output_0:
        qtype: asymmetric_quantized
        qmethod: layer
        dtype: int8
        min:
        -   -0.7585744261741638
        max:
        -   6.805473804473877
        scale:
        -   0.029662934237835455
        zero_point:
        -   -102
        ori_min:
        -   -0.7585744261741638
        ori_max:
        -   6.805473804473877
    /model.17/conv/Conv_output_0:
        qtype: asymmetric_quantized
        qmethod: layer
        dtype: int8
        min:
        -   -7.342057704925537
        max:
        -   5.518398284912109
        scale:
        -   0.05043316074446136
        zero_point:
        -   18
        ori_min:
        -   -7.342057704925537
        ori_max:
        -   5.518398284912109
    /model.17/act/LeakyRelu_output_0:
        qtype: asymmetric_quantized
        qmethod: layer
        dtype: int8
        min:
        -   -0.7342057824134827
        max:
        -   5.518398284912109
        scale:
        -   0.024520015950296438
        zero_point:
        -   -98
        ori_min:
        -   -0.7342057824134827
        ori_max:
        -   5.518398284912109
    /model.18/conv/Conv_output_0:
        qtype: asymmetric_quantized
        qmethod: layer
        dtype: int8
        min:
        -   -8.016016960144043
        max:
        -   10.939132690429688
        scale:
        -   0.07433392019832835
        zero_point:
        -   -20
        ori_min:
        -   -8.016016960144043
        ori_max:
        -   10.939132690429688
    /model.18/act/LeakyRelu_output_0:
        qtype: asymmetric_quantized
        qmethod: layer
        dtype: int8
        min:
        -   -0.8016017079353333
        max:
        -   10.939132690429688
        scale:
        -   0.046042095679862824
        zero_point:
        -   -111
        ori_min:
        -   -0.8016017079353333
        ori_max:
        -   10.939132690429688
    /model.19/conv/Conv_output_0:
        qtype: asymmetric_quantized
        qmethod: layer
        dtype: int8
        min:
        -   -9.439882278442383
        max:
        -   10.975129127502441
        scale:
        -   0.08005886825860715
        zero_point:
        -   -10
        ori_min:
        -   -9.439882278442383
        ori_max:
        -   10.975129127502441
    /model.19/act/LeakyRelu_output_0:
        qtype: asymmetric_quantized
        qmethod: layer
        dtype: int8
        min:
        -   -0.9439882636070251
        max:
        -   10.975129127502441
        scale:
        -   0.04674163682788026
        zero_point:
        -   -108
        ori_min:
        -   -0.9439882636070251
        ori_max:
        -   10.975129127502441
    /model.20/Concat_output_0:
        qtype: asymmetric_quantized
        qmethod: layer
        dtype: int8
        min:
        -   -0.9439882636070251
        max:
        -   10.975129127502441
        scale:
        -   0.04674163682788026
        zero_point:
        -   -108
        ori_min:
        -   -0.9439882636070251
        ori_max:
        -   10.975129127502441
    /model.21/conv/Conv_output_0:
        qtype: asymmetric_quantized
        qmethod: layer
        dtype: int8
        min:
        -   -8.662195205688477
        max:
        -   9.209897994995117
        scale:
        -   0.07008664000268076
        zero_point:
        -   -4
        ori_min:
        -   -8.662195205688477
        ori_max:
        -   9.209897994995117
    /model.21/act/LeakyRelu_output_0:
        qtype: asymmetric_quantized
        qmethod: layer
        dtype: int8
        min:
        -   -0.8662195205688477
        max:
        -   9.209897994995117
        scale:
        -   0.03951418633554496
        zero_point:
        -   -106
        ori_min:
        -   -0.8662195205688477
        ori_max:
        -   9.209897994995117
    /model.22/m/MaxPool_output_0:
        qtype: asymmetric_quantized
        qmethod: layer
        dtype: int8
        min:
        -   -0.8662195205688477
        max:
        -   9.209897994995117
        scale:
        -   0.03951418633554496
        zero_point:
        -   -106
        ori_min:
        -   -0.4856276214122772
        ori_max:
        -   9.209897994995117
    /model.23/conv/Conv_output_0:
        qtype: asymmetric_quantized
        qmethod: layer
        dtype: int8
        min:
        -   -6.185578346252441
        max:
        -   5.117372035980225
        scale:
        -   0.04432529561659869
        zero_point:
        -   12
        ori_min:
        -   -6.185578346252441
        ori_max:
        -   5.117372035980225
    /model.23/act/LeakyRelu_output_0:
        qtype: asymmetric_quantized
        qmethod: layer
        dtype: int8
        min:
        -   -0.618557870388031
        max:
        -   5.117372035980225
        scale:
        -   0.02249384277007159
        zero_point:
        -   -101
        ori_min:
        -   -0.618557870388031
        ori_max:
        -   5.117372035980225
    /model.24/conv/Conv_output_0:
        qtype: asymmetric_quantized
        qmethod: layer
        dtype: int8
        min:
        -   -5.060124397277832
        max:
        -   8.718108177185059
        scale:
        -   0.05403228460573683
        zero_point:
        -   -34
        ori_min:
        -   -5.060124397277832
        ori_max:
        -   8.718108177185059
    /model.24/act/LeakyRelu_output_0:
        qtype: asymmetric_quantized
        qmethod: layer
        dtype: int8
        min:
        -   -0.5060124397277832
        max:
        -   8.718108177185059
        scale:
        -   0.03617302202710918
        zero_point:
        -   -114
        ori_min:
        -   -0.5060124397277832
        ori_max:
        -   8.718108177185059
    /model.25/conv/Conv_output_0:
        qtype: asymmetric_quantized
        qmethod: layer
        dtype: int8
        min:
        -   -7.193178176879883
        max:
        -   10.139275550842285
        scale:
        -   0.06797040677538105
        zero_point:
        -   -22
        ori_min:
        -   -7.193178176879883
        ori_max:
        -   10.139275550842285
    /model.25/act/LeakyRelu_output_0:
        qtype: asymmetric_quantized
        qmethod: layer
        dtype: int8
        min:
        -   -0.7193178534507751
        max:
        -   10.139275550842285
        scale:
        -   0.042582719232521805
        zero_point:
        -   -111
        ori_min:
        -   -0.7193178534507751
        ori_max:
        -   10.139275550842285
    /model.26/conv/Conv_output_0:
        qtype: asymmetric_quantized
        qmethod: layer
        dtype: int8
        min:
        -   -9.319661140441895
        max:
        -   9.730329513549805
        scale:
        -   0.07470584570192823
        zero_point:
        -   -3
        ori_min:
        -   -9.319661140441895
        ori_max:
        -   9.730329513549805
    /model.26/act/LeakyRelu_output_0:
        qtype: asymmetric_quantized
        qmethod: layer
        dtype: int8
        min:
        -   -0.9319661259651184
        max:
        -   9.730329513549805
        scale:
        -   0.04181292407652911
        zero_point:
        -   -106
        ori_min:
        -   -0.9319661259651184
        ori_max:
        -   9.730329513549805
    /model.27/Concat_output_0:
        qtype: asymmetric_quantized
        qmethod: layer
        dtype: int8
        min:
        -   -0.9319661259651184
        max:
        -   10.139275550842285
        scale:
        -   0.0434166340266957
        zero_point:
        -   -107
        ori_min:
        -   -0.9319661259651184
        ori_max:
        -   10.139275550842285
    /model.28/conv/Conv_output_0:
        qtype: asymmetric_quantized
        qmethod: layer
        dtype: int8
        min:
        -   -6.543367385864258
        max:
        -   5.755414962768555
        scale:
        -   0.048230519014246326
        zero_point:
        -   8
        ori_min:
        -   -6.543367385864258
        ori_max:
        -   5.755414962768555
    /model.28/act/LeakyRelu_output_0:
        qtype: asymmetric_quantized
        qmethod: layer
        dtype: int8
        min:
        -   -0.6543367505073547
        max:
        -   5.755414962768555
        scale:
        -   0.025136281228532977
        zero_point:
        -   -102
        ori_min:
        -   -0.6543367505073547
        ori_max:
        -   5.755414962768555
    /model.29/conv/Conv_output_0:
        qtype: asymmetric_quantized
        qmethod: layer
        dtype: int8
        min:
        -   -5.085845947265625
        max:
        -   3.921398639678955
        scale:
        -   0.03532252779193953
        zero_point:
        -   16
        ori_min:
        -   -5.085845947265625
        ori_max:
        -   3.921398639678955
    /model.29/act/LeakyRelu_output_0:
        qtype: asymmetric_quantized
        qmethod: layer
        dtype: int8
        min:
        -   -0.5085846185684204
        max:
        -   3.921398639678955
        scale:
        -   0.017372483365675984
        zero_point:
        -   -99
        ori_min:
        -   -0.5085846185684204
        ori_max:
        -   3.921398639678955
    /model.30/conv/Conv_output_0:
        qtype: asymmetric_quantized
        qmethod: layer
        dtype: int8
        min:
        -   -5.4238080978393555
        max:
        -   5.939486503601074
        scale:
        -   0.044561939613491884
        zero_point:
        -   -6
        ori_min:
        -   -5.4238080978393555
        ori_max:
        -   5.939486503601074
    /model.30/act/LeakyRelu_output_0:
        qtype: asymmetric_quantized
        qmethod: layer
        dtype: int8
        min:
        -   -0.5423808097839355
        max:
        -   5.939486503601074
        scale:
        -   0.025419087503470626
        zero_point:
        -   -107
        ori_min:
        -   -0.5423808097839355
        ori_max:
        -   5.939486503601074
    /model.33/m/MaxPool_output_001:
        qtype: asymmetric_quantized
        qmethod: layer
        dtype: int8
        min:
        -   -0.5423808097839355
        max:
        -   5.939486503601074
        scale:
        -   0.025419087503470626
        zero_point:
        -   -107
        ori_min:
        -   -0.1807537078857422
        ori_max:
        -   5.939486503601074
    /model.33/m/MaxPool_output_00:
        qtype: asymmetric_quantized
        qmethod: layer
        dtype: int8
        min:
        -   -0.5423808097839355
        max:
        -   5.939486503601074
        scale:
        -   0.025419087503470626
        zero_point:
        -   -107
        ori_min:
        -   -0.1069442555308342
        ori_max:
        -   5.939486503601074
    /model.33/m/MaxPool_output_01:
        qtype: asymmetric_quantized
        qmethod: layer
        dtype: int8
        min:
        -   -0.5423808097839355
        max:
        -   5.939486503601074
        scale:
        -   0.025419087503470626
        zero_point:
        -   -107
        ori_min:
        -   -0.0740547627210617
        ori_max:
        -   5.939486503601074
    /model.33/m/MaxPool_output_0:
        qtype: asymmetric_quantized
        qmethod: layer
        dtype: int8
        min:
        -   -0.5423808097839355
        max:
        -   5.939486503601074
        scale:
        -   0.025419087503470626
        zero_point:
        -   -107
        ori_min:
        -   -0.05275101214647293
        ori_max:
        -   5.939486503601074
    /model.32/m/MaxPool_output_001:
        qtype: asymmetric_quantized
        qmethod: layer
        dtype: int8
        min:
        -   -0.5423808097839355
        max:
        -   5.939486503601074
        scale:
        -   0.025419087503470626
        zero_point:
        -   -107
        ori_min:
        -   -0.22787104547023773
        ori_max:
        -   5.939486503601074
    /model.32/m/MaxPool_output_00:
        qtype: asymmetric_quantized
        qmethod: layer
        dtype: int8
        min:
        -   -0.5423808097839355
        max:
        -   5.939486503601074
        scale:
        -   0.025419087503470626
        zero_point:
        -   -107
        ori_min:
        -   -0.17095835506916046
        ori_max:
        -   5.939486503601074
    /model.32/m/MaxPool_output_01:
        qtype: asymmetric_quantized
        qmethod: layer
        dtype: int8
        min:
        -   -0.5423808097839355
        max:
        -   5.939486503601074
        scale:
        -   0.025419087503470626
        zero_point:
        -   -107
        ori_min:
        -   -0.1069442555308342
        ori_max:
        -   5.939486503601074
    /model.32/m/MaxPool_output_0:
        qtype: asymmetric_quantized
        qmethod: layer
        dtype: int8
        min:
        -   -0.5423808097839355
        max:
        -   5.939486503601074
        scale:
        -   0.025419087503470626
        zero_point:
        -   -107
        ori_min:
        -   -0.07645358145236969
        ori_max:
        -   5.939486503601074
    /model.31/m/MaxPool_output_0:
        qtype: asymmetric_quantized
        qmethod: layer
        dtype: int8
        min:
        -   -0.5423808097839355
        max:
        -   5.939486503601074
        scale:
        -   0.025419087503470626
        zero_point:
        -   -107
        ori_min:
        -   -0.17095835506916046
        ori_max:
        -   5.939486503601074
    /model.34/Concat_output_0:
        qtype: asymmetric_quantized
        qmethod: layer
        dtype: int8
        min:
        -   -0.5423808097839355
        max:
        -   5.939486503601074
        scale:
        -   0.025419087503470626
        zero_point:
        -   -107
        ori_min:
        -   -0.5423808097839355
        ori_max:
        -   5.939486503601074
    /model.35/conv/Conv_output_0:
        qtype: asymmetric_quantized
        qmethod: layer
        dtype: int8
        min:
        -   -5.914262294769287
        max:
        -   4.2887797355651855
        scale:
        -   0.040011929530723425
        zero_point:
        -   20
        ori_min:
        -   -5.914262294769287
        ori_max:
        -   4.2887797355651855
    /model.35/act/LeakyRelu_output_0:
        qtype: asymmetric_quantized
        qmethod: layer
        dtype: int8
        min:
        -   -0.5914262533187866
        max:
        -   4.2887797355651855
        scale:
        -   0.019138062701505774
        zero_point:
        -   -97
        ori_min:
        -   -0.5914262533187866
        ori_max:
        -   4.2887797355651855
    /model.36/Concat_output_0:
        qtype: asymmetric_quantized
        qmethod: layer
        dtype: int8
        min:
        -   -0.5914262533187866
        max:
        -   4.2887797355651855
        scale:
        -   0.019138062701505774
        zero_point:
        -   -97
        ori_min:
        -   -0.5914262533187866
        ori_max:
        -   4.2887797355651855
    /model.37/conv/Conv_output_0:
        qtype: asymmetric_quantized
        qmethod: layer
        dtype: int8
        min:
        -   -5.683287620544434
        max:
        -   5.566241264343262
        scale:
        -   0.0441157995485792
        zero_point:
        -   1
        ori_min:
        -   -5.683287620544434
        ori_max:
        -   5.566241264343262
    /model.37/act/LeakyRelu_output_0:
        qtype: asymmetric_quantized
        qmethod: layer
        dtype: int8
        min:
        -   -0.5683287978172302
        max:
        -   5.566241264343262
        scale:
        -   0.024057137498668595
        zero_point:
        -   -104
        ori_min:
        -   -0.5683287978172302
        ori_max:
        -   5.566241264343262
    /model.38/conv/Conv_output_0:
        qtype: asymmetric_quantized
        qmethod: layer
        dtype: int8
        min:
        -   -5.319331645965576
        max:
        -   6.264615535736084
        scale:
        -   0.04542724384981043
        zero_point:
        -   -11
        ori_min:
        -   -5.319331645965576
        ori_max:
        -   6.264615535736084
    /model.38/act/LeakyRelu_output_0:
        qtype: asymmetric_quantized
        qmethod: layer
        dtype: int8
        min:
        -   -0.5319331884384155
        max:
        -   6.264615535736084
        scale:
        -   0.026653132251664702
        zero_point:
        -   -108
        ori_min:
        -   -0.5319331884384155
        ori_max:
        -   6.264615535736084
    /model.39/Resize_output_0:
        qtype: asymmetric_quantized
        qmethod: layer
        dtype: int8
        min:
        -   -0.5319331884384155
        max:
        -   6.264615535736084
        scale:
        -   0.026653132251664702
        zero_point:
        -   -108
        ori_min:
        -   -0.5319331884384155
        ori_max:
        -   6.264615535736084
    /model.40/conv/Conv_output_0:
        qtype: asymmetric_quantized
        qmethod: layer
        dtype: int8
        min:
        -   -8.76123332977295
        max:
        -   13.082633972167969
        scale:
        -   0.0856622247134938
        zero_point:
        -   -26
        ori_min:
        -   -8.76123332977295
        ori_max:
        -   13.082633972167969
    /model.40/act/LeakyRelu_output_0:
        qtype: asymmetric_quantized
        qmethod: layer
        dtype: int8
        min:
        -   -0.8761233687400818
        max:
        -   13.082633972167969
        scale:
        -   0.05474022486630608
        zero_point:
        -   -112
        ori_min:
        -   -0.8761233687400818
        ori_max:
        -   13.082633972167969
    /model.41/Concat_output_0:
        qtype: asymmetric_quantized
        qmethod: layer
        dtype: int8
        min:
        -   -0.8761233687400818
        max:
        -   13.082633972167969
        scale:
        -   0.05474022486630608
        zero_point:
        -   -112
        ori_min:
        -   -0.8761233687400818
        ori_max:
        -   13.082633972167969
    /model.42/conv/Conv_output_0:
        qtype: asymmetric_quantized
        qmethod: layer
        dtype: int8
        min:
        -   -8.072511672973633
        max:
        -   4.45654296875
        scale:
        -   0.04913354761460248
        zero_point:
        -   36
        ori_min:
        -   -8.072511672973633
        ori_max:
        -   4.45654296875
    /model.42/act/LeakyRelu_output_0:
        qtype: asymmetric_quantized
        qmethod: layer
        dtype: int8
        min:
        -   -0.8072511553764343
        max:
        -   4.45654296875
        scale:
        -   0.020642329898535035
        zero_point:
        -   -89
        ori_min:
        -   -0.8072511553764343
        ori_max:
        -   4.45654296875
    /model.43/conv/Conv_output_0:
        qtype: asymmetric_quantized
        qmethod: layer
        dtype: int8
        min:
        -   -5.999821662902832
        max:
        -   7.6233811378479
        scale:
        -   0.0534243247088264
        zero_point:
        -   -16
        ori_min:
        -   -5.999821662902832
        ori_max:
        -   7.6233811378479
    /model.43/act/LeakyRelu_output_0:
        qtype: asymmetric_quantized
        qmethod: layer
        dtype: int8
        min:
        -   -0.5999822020530701
        max:
        -   7.6233811378479
        scale:
        -   0.03224848368588616
        zero_point:
        -   -109
        ori_min:
        -   -0.5999822020530701
        ori_max:
        -   7.6233811378479
    /model.44/conv/Conv_output_0:
        qtype: asymmetric_quantized
        qmethod: layer
        dtype: int8
        min:
        -   -8.092245101928711
        max:
        -   5.107483386993408
        scale:
        -   0.05176364113302792
        zero_point:
        -   28
        ori_min:
        -   -8.092245101928711
        ori_max:
        -   5.107483386993408
    /model.44/act/LeakyRelu_output_0:
        qtype: asymmetric_quantized
        qmethod: layer
        dtype: int8
        min:
        -   -0.809224545955658
        max:
        -   5.107483386993408
        scale:
        -   0.023202776207643397
        zero_point:
        -   -93
        ori_min:
        -   -0.809224545955658
        ori_max:
        -   5.107483386993408
    /model.45/conv/Conv_output_0:
        qtype: asymmetric_quantized
        qmethod: layer
        dtype: int8
        min:
        -   -8.341116905212402
        max:
        -   10.052328109741211
        scale:
        -   0.07213115692138672
        zero_point:
        -   -12
        ori_min:
        -   -8.341116905212402
        ori_max:
        -   10.052328109741211
    /model.45/act/LeakyRelu_output_0:
        qtype: asymmetric_quantized
        qmethod: layer
        dtype: int8
        min:
        -   -0.8341116905212402
        max:
        -   10.052328109741211
        scale:
        -   0.042691920785342945
        zero_point:
        -   -108
        ori_min:
        -   -0.8341116905212402
        ori_max:
        -   10.052328109741211
    /model.46/Concat_output_0:
        qtype: asymmetric_quantized
        qmethod: layer
        dtype: int8
        min:
        -   -0.8341116905212402
        max:
        -   10.052328109741211
        scale:
        -   0.042691920785342945
        zero_point:
        -   -108
        ori_min:
        -   -0.8341116905212402
        ori_max:
        -   10.052328109741211
    /model.47/conv/Conv_output_0:
        qtype: asymmetric_quantized
        qmethod: layer
        dtype: int8
        min:
        -   -6.325839519500732
        max:
        -   6.075989723205566
        scale:
        -   0.04863462448120117
        zero_point:
        -   2
        ori_min:
        -   -6.325839519500732
        ori_max:
        -   6.075989723205566
    /model.47/act/LeakyRelu_output_0:
        qtype: asymmetric_quantized
        qmethod: layer
        dtype: int8
        min:
        -   -0.6325839757919312
        max:
        -   6.075989723205566
        scale:
        -   0.026308132152931363
        zero_point:
        -   -104
        ori_min:
        -   -0.6325839757919312
        ori_max:
        -   6.075989723205566
    /model.48/conv/Conv_output_0:
        qtype: asymmetric_quantized
        qmethod: layer
        dtype: int8
        min:
        -   -5.582967281341553
        max:
        -   9.714909553527832
        scale:
        -   0.059991673862232885
        zero_point:
        -   -35
        ori_min:
        -   -5.582967281341553
        ori_max:
        -   9.714909553527832
    /model.48/act/LeakyRelu_output_0:
        qtype: asymmetric_quantized
        qmethod: layer
        dtype: int8
        min:
        -   -0.5582967400550842
        max:
        -   9.714909553527832
        scale:
        -   0.04028708350424673
        zero_point:
        -   -114
        ori_min:
        -   -0.5582967400550842
        ori_max:
        -   9.714909553527832
    /model.49/Resize_output_0:
        qtype: asymmetric_quantized
        qmethod: layer
        dtype: int8
        min:
        -   -0.5582967400550842
        max:
        -   9.714909553527832
        scale:
        -   0.04028708350424673
        zero_point:
        -   -114
        ori_min:
        -   -0.5582967400550842
        ori_max:
        -   9.714909553527832
    /model.50/conv/Conv_output_0:
        qtype: asymmetric_quantized
        qmethod: layer
        dtype: int8
        min:
        -   -10.422654151916504
        max:
        -   7.172367572784424
        scale:
        -   0.0690000851949056
        zero_point:
        -   23
        ori_min:
        -   -10.422654151916504
        ori_max:
        -   7.172367572784424
    /model.50/act/LeakyRelu_output_0:
        qtype: asymmetric_quantized
        qmethod: layer
        dtype: int8
        min:
        -   -1.0422654151916504
        max:
        -   7.172367572784424
        scale:
        -   0.03221424701167088
        zero_point:
        -   -96
        ori_min:
        -   -1.0422654151916504
        ori_max:
        -   7.172367572784424
    /model.51/Concat_output_0:
        qtype: asymmetric_quantized
        qmethod: layer
        dtype: int8
        min:
        -   -1.0422654151916504
        max:
        -   9.714909553527832
        scale:
        -   0.042184999877331306
        zero_point:
        -   -103
        ori_min:
        -   -1.0422654151916504
        ori_max:
        -   9.714909553527832
    /model.52/conv/Conv_output_0:
        qtype: asymmetric_quantized
        qmethod: layer
        dtype: int8
        min:
        -   -8.452035903930664
        max:
        -   4.547547817230225
        scale:
        -   0.05097875969082701
        zero_point:
        -   38
        ori_min:
        -   -8.452035903930664
        ori_max:
        -   4.547547817230225
    /model.52/act/LeakyRelu_output_0:
        qtype: asymmetric_quantized
        qmethod: layer
        dtype: int8
        min:
        -   -0.8452035784721375
        max:
        -   4.547547817230225
        scale:
        -   0.02114804468902887
        zero_point:
        -   -88
        ori_min:
        -   -0.8452035784721375
        ori_max:
        -   4.547547817230225
    /model.53/conv/Conv_output_0:
        qtype: asymmetric_quantized
        qmethod: layer
        dtype: int8
        min:
        -   -8.869712829589844
        max:
        -   5.365930557250977
        scale:
        -   0.05582605249741498
        zero_point:
        -   31
        ori_min:
        -   -8.869712829589844
        ori_max:
        -   5.365930557250977
    /model.53/act/LeakyRelu_output_0:
        qtype: asymmetric_quantized
        qmethod: layer
        dtype: int8
        min:
        -   -0.8869712948799133
        max:
        -   5.365930557250977
        scale:
        -   0.024521183733846628
        zero_point:
        -   -92
        ori_min:
        -   -0.8869712948799133
        ori_max:
        -   5.365930557250977
    /model.54/conv/Conv_output_0:
        qtype: asymmetric_quantized
        qmethod: layer
        dtype: int8
        min:
        -   -7.32328462600708
        max:
        -   4.509329795837402
        scale:
        -   0.04640240949742934
        zero_point:
        -   30
        ori_min:
        -   -7.32328462600708
        ori_max:
        -   4.509329795837402
    /model.54/act/LeakyRelu_output_0:
        qtype: asymmetric_quantized
        qmethod: layer
        dtype: int8
        min:
        -   -0.732328474521637
        max:
        -   4.509329795837402
        scale:
        -   0.02055552262885898
        zero_point:
        -   -92
        ori_min:
        -   -0.732328474521637
        ori_max:
        -   4.509329795837402
    /model.55/conv/Conv_output_0:
        qtype: asymmetric_quantized
        qmethod: layer
        dtype: int8
        min:
        -   -9.14962387084961
        max:
        -   6.730174541473389
        scale:
        -   0.062273719264011755
        zero_point:
        -   19
        ori_min:
        -   -9.14962387084961
        ori_max:
        -   6.730174541473389
    /model.55/act/LeakyRelu_output_0:
        qtype: asymmetric_quantized
        qmethod: layer
        dtype: int8
        min:
        -   -0.9149624109268188
        max:
        -   6.730174541473389
        scale:
        -   0.029980929225098853
        zero_point:
        -   -97
        ori_min:
        -   -0.9149624109268188
        ori_max:
        -   6.730174541473389
    /model.56/Concat_output_0:
        qtype: asymmetric_quantized
        qmethod: layer
        dtype: int8
        min:
        -   -0.9149624109268188
        max:
        -   6.730174541473389
        scale:
        -   0.029980929225098853
        zero_point:
        -   -97
        ori_min:
        -   -0.9149624109268188
        ori_max:
        -   6.730174541473389
    /model.57/conv/Conv_output_0:
        qtype: asymmetric_quantized
        qmethod: layer
        dtype: int8
        min:
        -   -9.311485290527344
        max:
        -   9.708305358886719
        scale:
        -   0.0745874143114277
        zero_point:
        -   -3
        ori_min:
        -   -9.311485290527344
        ori_max:
        -   9.708305358886719
    /model.57/act/LeakyRelu_output_0:
        qtype: asymmetric_quantized
        qmethod: layer
        dtype: int8
        min:
        -   -0.9311485290527344
        max:
        -   9.708305358886719
        scale:
        -   0.041723348580154716
        zero_point:
        -   -106
        ori_min:
        -   -0.9311485290527344
        ori_max:
        -   9.708305358886719
    /model.58/conv/Conv_output_0:
        qtype: asymmetric_quantized
        qmethod: layer
        dtype: int8
        min:
        -   -10.526132583618164
        max:
        -   6.1383819580078125
        scale:
        -   0.06535103741814108
        zero_point:
        -   33
        ori_min:
        -   -10.526132583618164
        ori_max:
        -   6.1383819580078125
    /model.58/act/LeakyRelu_output_0:
        qtype: asymmetric_quantized
        qmethod: layer
        dtype: int8
        min:
        -   -1.0526132583618164
        max:
        -   6.1383819580078125
        scale:
        -   0.028199981240665212
        zero_point:
        -   -91
        ori_min:
        -   -1.0526132583618164
        ori_max:
        -   6.1383819580078125
    /model.59/Concat_output_0:
        qtype: asymmetric_quantized
        qmethod: layer
        dtype: int8
        min:
        -   -1.0526132583618164
        max:
        -   6.1383819580078125
        scale:
        -   0.028199981240665212
        zero_point:
        -   -91
        ori_min:
        -   -1.0526132583618164
        ori_max:
        -   6.1383819580078125
    /model.60/conv/Conv_output_0:
        qtype: asymmetric_quantized
        qmethod: layer
        dtype: int8
        min:
        -   -8.11893081665039
        max:
        -   6.191826343536377
        scale:
        -   0.05612061631445791
        zero_point:
        -   17
        ori_min:
        -   -8.11893081665039
        ori_max:
        -   6.191826343536377
    /model.60/act/LeakyRelu_output_0:
        qtype: asymmetric_quantized
        qmethod: layer
        dtype: int8
        min:
        -   -0.811893105506897
        max:
        -   6.191826343536377
        scale:
        -   0.02746556646683637
        zero_point:
        -   -98
        ori_min:
        -   -0.811893105506897
        ori_max:
        -   6.191826343536377
    /model.61/conv/Conv_output_0:
        qtype: asymmetric_quantized
        qmethod: layer
        dtype: int8
        min:
        -   -5.670804500579834
        max:
        -   5.975240230560303
        scale:
        -   0.04567076365152995
        zero_point:
        -   -4
        ori_min:
        -   -5.670804500579834
        ori_max:
        -   5.975240230560303
    /model.61/act/LeakyRelu_output_0:
        qtype: asymmetric_quantized
        qmethod: layer
        dtype: int8
        min:
        -   -0.5670804381370544
        max:
        -   5.975240230560303
        scale:
        -   0.025656159485087676
        zero_point:
        -   -106
        ori_min:
        -   -0.5670804381370544
        ori_max:
        -   5.975240230560303
    /model.62/conv/Conv_output_0:
        qtype: asymmetric_quantized
        qmethod: layer
        dtype: int8
        min:
        -   -8.730411529541016
        max:
        -   6.466544151306152
        scale:
        -   0.05959590463077321
        zero_point:
        -   18
        ori_min:
        -   -8.730411529541016
        ori_max:
        -   6.466544151306152
    /model.62/act/LeakyRelu_output_0:
        qtype: asymmetric_quantized
        qmethod: layer
        dtype: int8
        min:
        -   -0.8730411529541016
        max:
        -   6.466544151306152
        scale:
        -   0.02878268746768727
        zero_point:
        -   -98
        ori_min:
        -   -0.8730411529541016
        ori_max:
        -   6.466544151306152
    /model.63/conv/Conv_output_0:
        qtype: asymmetric_quantized
        qmethod: layer
        dtype: int8
        min:
        -   -12.159031867980957
        max:
        -   12.629239082336426
        scale:
        -   0.09720890568751915
        zero_point:
        -   -3
        ori_min:
        -   -12.159031867980957
        ori_max:
        -   12.629239082336426
    /model.63/act/LeakyRelu_output_0:
        qtype: asymmetric_quantized
        qmethod: layer
        dtype: int8
        min:
        -   -1.2159031629562378
        max:
        -   12.629239082336426
        scale:
        -   0.054294675471735936
        zero_point:
        -   -106
        ori_min:
        -   -1.2159031629562378
        ori_max:
        -   12.629239082336426
    /model.64/Concat_output_0:
        qtype: asymmetric_quantized
        qmethod: layer
        dtype: int8
        min:
        -   -1.2159031629562378
        max:
        -   12.629239082336426
        scale:
        -   0.054294675471735936
        zero_point:
        -   -106
        ori_min:
        -   -1.2159031629562378
        ori_max:
        -   12.629239082336426
    /model.65/conv/Conv_output_0:
        qtype: asymmetric_quantized
        qmethod: layer
        dtype: int8
        min:
        -   -12.814332962036133
        max:
        -   11.730786323547363
        scale:
        -   0.09625536974738626
        zero_point:
        -   5
        ori_min:
        -   -12.814332962036133
        ori_max:
        -   11.730786323547363
    /model.65/act/LeakyRelu_output_0:
        qtype: asymmetric_quantized
        qmethod: layer
        dtype: int8
        min:
        -   -1.281433343887329
        max:
        -   11.730786323547363
        scale:
        -   0.05102831242131252
        zero_point:
        -   -103
        ori_min:
        -   -1.281433343887329
        ori_max:
        -   11.730786323547363
    /model.66/conv/Conv_output_0:
        qtype: asymmetric_quantized
        qmethod: layer
        dtype: int8
        min:
        -   -8.385372161865234
        max:
        -   9.542394638061523
        scale:
        -   0.07030496784285004
        zero_point:
        -   -9
        ori_min:
        -   -8.385372161865234
        ori_max:
        -   9.542394638061523
    /model.66/act/LeakyRelu_output_0:
        qtype: asymmetric_quantized
        qmethod: layer
        dtype: int8
        min:
        -   -0.8385372161865234
        max:
        -   9.542394638061523
        scale:
        -   0.04070953668332567
        zero_point:
        -   -107
        ori_min:
        -   -0.8385372161865234
        ori_max:
        -   9.542394638061523
    /model.67/Concat_output_0:
        qtype: asymmetric_quantized
        qmethod: layer
        dtype: int8
        min:
        -   -0.8385372161865234
        max:
        -   9.542394638061523
        scale:
        -   0.04070953668332567
        zero_point:
        -   -107
        ori_min:
        -   -0.8385372161865234
        ori_max:
        -   9.542394638061523
    /model.68/conv/Conv_output_0:
        qtype: asymmetric_quantized
        qmethod: layer
        dtype: int8
        min:
        -   -7.418500900268555
        max:
        -   5.923311233520508
        scale:
        -   0.05232083189721201
        zero_point:
        -   14
        ori_min:
        -   -7.418500900268555
        ori_max:
        -   5.923311233520508
    /model.68/act/LeakyRelu_output_0:
        qtype: asymmetric_quantized
        qmethod: layer
        dtype: int8
        min:
        -   -0.7418500781059265
        max:
        -   5.923311233520508
        scale:
        -   0.026137887496574252
        zero_point:
        -   -100
        ori_min:
        -   -0.7418500781059265
        ori_max:
        -   5.923311233520508
    /model.69/conv/Conv_output_0:
        qtype: asymmetric_quantized
        qmethod: layer
        dtype: int8
        min:
        -   -8.047547340393066
        max:
        -   5.4022417068481445
        scale:
        -   0.052744270773494945
        zero_point:
        -   25
        ori_min:
        -   -8.047547340393066
        ori_max:
        -   5.4022417068481445
    /model.69/act/LeakyRelu_output_0:
        qtype: asymmetric_quantized
        qmethod: layer
        dtype: int8
        min:
        -   -0.8047547340393066
        max:
        -   5.4022417068481445
        scale:
        -   0.024341162513284123
        zero_point:
        -   -95
        ori_min:
        -   -0.8047547340393066
        ori_max:
        -   5.4022417068481445
    /model.70/conv/Conv_output_0:
        qtype: asymmetric_quantized
        qmethod: layer
        dtype: int8
        min:
        -   -7.474341869354248
        max:
        -   8.028254508972168
        scale:
        -   0.060794495601280064
        zero_point:
        -   -5
        ori_min:
        -   -7.474341869354248
        ori_max:
        -   8.028254508972168
    /model.70/act/LeakyRelu_output_0:
        qtype: asymmetric_quantized
        qmethod: layer
        dtype: int8
        min:
        -   -0.7474341988563538
        max:
        -   8.028254508972168
        scale:
        -   0.034414465520896165
        zero_point:
        -   -106
        ori_min:
        -   -0.7474341988563538
        ori_max:
        -   8.028254508972168
    /model.71/conv/Conv_output_0:
        qtype: asymmetric_quantized
        qmethod: layer
        dtype: int8
        min:
        -   -16.229772567749023
        max:
        -   10.212224960327148
        scale:
        -   0.10369410795323988
        zero_point:
        -   29
        ori_min:
        -   -16.229772567749023
        ori_max:
        -   10.212224960327148
    /model.71/act/LeakyRelu_output_0:
        qtype: asymmetric_quantized
        qmethod: layer
        dtype: int8
        min:
        -   -1.6229772567749023
        max:
        -   10.212224960327148
        scale:
        -   0.04641255771412569
        zero_point:
        -   -93
        ori_min:
        -   -1.6229772567749023
        ori_max:
        -   10.212224960327148
    /model.72/Concat_output_0:
        qtype: asymmetric_quantized
        qmethod: layer
        dtype: int8
        min:
        -   -1.6229772567749023
        max:
        -   10.212224960327148
        scale:
        -   0.04641255771412569
        zero_point:
        -   -93
        ori_min:
        -   -1.6229772567749023
        ori_max:
        -   10.212224960327148
    /model.73/conv/Conv_output_0:
        qtype: asymmetric_quantized
        qmethod: layer
        dtype: int8
        min:
        -   -27.88793182373047
        max:
        -   8.618005752563477
        scale:
        -   0.14316053951487823
        zero_point:
        -   67
        ori_min:
        -   -27.88793182373047
        ori_max:
        -   8.618005752563477
    /model.73/act/LeakyRelu_output_0:
        qtype: asymmetric_quantized
        qmethod: layer
        dtype: int8
        min:
        -   -2.7887933254241943
        max:
        -   8.618005752563477
        scale:
        -   0.04473254540387322
        zero_point:
        -   -66
        ori_min:
        -   -2.7887933254241943
        ori_max:
        -   8.618005752563477
    /model.76/conv/Conv_output_0:
        qtype: asymmetric_quantized
        qmethod: layer
        dtype: int8
        min:
        -   -14.54753303527832
        max:
        -   14.968250274658203
        scale:
        -   0.11574816984288833
        zero_point:
        -   -2
        ori_min:
        -   -14.54753303527832
        ori_max:
        -   14.968250274658203
    /model.76/act/LeakyRelu_output_0:
        qtype: asymmetric_quantized
        qmethod: layer
        dtype: int8
        min:
        -   -1.4547532796859741
        max:
        -   14.968250274658203
        scale:
        -   0.06440393550723207
        zero_point:
        -   -105
        ori_min:
        -   -1.4547532796859741
        ori_max:
        -   14.968250274658203
    '263':
        qtype: asymmetric_quantized
        qmethod: layer
        dtype: float32
        min:
        -   -25.558208465576172
        max:
        -   10.95344352722168
        scale: []
        zero_point: []
        ori_min:
        -   -25.558208465576172
        ori_max:
        -   10.95344352722168
    /model.75/conv/Conv_output_0:
        qtype: asymmetric_quantized
        qmethod: layer
        dtype: int8
        min:
        -   -25.58033561706543
        max:
        -   21.658794403076172
        scale:
        -   0.1852514902750651
        zero_point:
        -   10
        ori_min:
        -   -25.58033561706543
        ori_max:
        -   21.658794403076172
    /model.75/act/LeakyRelu_output_0:
        qtype: asymmetric_quantized
        qmethod: layer
        dtype: int8
        min:
        -   -2.5580337047576904
        max:
        -   21.658794403076172
        scale:
        -   0.09496795336405436
        zero_point:
        -   -101
        ori_min:
        -   -2.5580337047576904
        ori_max:
        -   21.658794403076172
    '262':
        qtype: asymmetric_quantized
        qmethod: layer
        dtype: float32
        min:
        -   -21.321392059326172
        max:
        -   9.214632034301758
        scale: []
        zero_point: []
        ori_min:
        -   -21.321392059326172
        ori_max:
        -   9.214632034301758
    /model.74/conv/Conv_output_0:
        qtype: asymmetric_quantized
        qmethod: layer
        dtype: int8
        min:
        -   -31.76683807373047
        max:
        -   22.239686965942383
        scale:
        -   0.21179029427322688
        zero_point:
        -   22
        ori_min:
        -   -31.76683807373047
        ori_max:
        -   22.239686965942383
    /model.74/act/LeakyRelu_output_0:
        qtype: asymmetric_quantized
        qmethod: layer
        dtype: int8
        min:
        -   -3.1766839027404785
        max:
        -   22.239686965942383
        scale:
        -   0.09967204262228573
        zero_point:
        -   -96
        ori_min:
        -   -3.1766839027404785
        ori_max:
        -   22.239686965942383
    output:
        qtype: asymmetric_quantized
        qmethod: layer
        dtype: float32
        min:
        -   -23.78326988220215
        max:
        -   5.161795616149902
        scale: []
        zero_point: []
        ori_min:
        -   -23.78326988220215
        ori_max:
        -   5.161795616149902
    images_int8:
        qtype: asymmetric_quantized
        qmethod: layer
        dtype: int8
        min:
        -   0.0
        max:
        -   1.0
        scale:
        -   0.00392156862745098
        zero_point:
        -   -128
        ori_min:
        -   0.0
        ori_max:
        -   1.0
    output_int8:
        qtype: asymmetric_quantized
        qmethod: layer
        dtype: int8
        min:
        -   -23.78326988220215
        max:
        -   5.161795616149902
        scale:
        -   0.11351006077785118
        zero_point:
        -   82
        ori_min:
        -   -23.78326988220215
        ori_max:
        -   5.161795616149902
    262_int8:
        qtype: asymmetric_quantized
        qmethod: layer
        dtype: int8
        min:
        -   -21.321392059326172
        max:
        -   9.214632034301758
        scale:
        -   0.11974911409265855
        zero_point:
        -   50
        ori_min:
        -   -21.321392059326172
        ori_max:
        -   9.214632034301758
    263_int8:
        qtype: asymmetric_quantized
        qmethod: layer
        dtype: int8
        min:
        -   -25.558208465576172
        max:
        -   10.95344352722168
        scale:
        -   0.14318294899136413
        zero_point:
        -   51
        ori_min:
        -   -25.558208465576172
        ori_max:
        -   10.95344352722168
